0111101101100110
1101011110010100
1110000000101011
1010110001101101
0010111111100110
0101111100110111
0001111100001110
1000100100000001
1011100110101110
0110011100001110
1011100000100011
1000100111011001
0111001101110100
1111100001001111
1011001000101001
1110101000000001
0110111101100010
1100010011110101
1001001000101011
1000110101010110
0000000110100111
0001010111101011
0100010110100110
1110100110100001
1100010111101000
0011010100101000
1010000010100101
1001001110001001
0010100011011001
0000111011011101
0110101110011010
0000100011000010
0110100010000011
0001000110110100
0001000111101110
1011100001110101
0011111010100011
1000010001111010
1100010001000100
0110010110000011
0010010110011110
1010011100000000
0011111110101011
1111000100111011
1011000111110010
1100101100100000
1000100100101111
0101101001000111
1110100011010101
0011000000000110
1010000001100110
1011001001011111
1101011010110111
0011000101111001
1101111001110100
1001010011101001
1011000100110100
1111110010101100
1100110100011001
1011100100110100
0001111011101001
0001101100110101
1011101011101100
0001001101001100
0011101111111101
1100001001011110
1110010011011010
0010000011110010
0101010101011101
1100001100001010
1010000100000011
0001111100000001
1100010111111010
0000101110010000
0111011100000100
0011111101101000
0001000101111100
0010101111000011
1110111100100101
1100101000101000
1111101100011011
1100010000100010
1111000011010101
0111100011111001
1010110111111010
0011010111000010
0011111110111001
0101010111100111
0001010110000000
1111110011011110
1110101111011101
0110100110011011
0001010101110101
1010011101000101
0110110011011010
1110000010001100
0000111011111111
1000100010111100
0001110011010000
0101101111001111
1011001101001000
1100001011000000
1010010001110011
0101100101001001
0111001101001101
0101011111010101
1000101101100101
0100000100100000
0000000001011000
1010010101010110
0000000101011001
1101101110110100
1101101111111100
1000011101001110
1111001000010111
0111000111111101
0100011100011011
0101011100111111
1100100111111010
0100010111101100
0110011001010011
1111000011110101
0110111000111001
0011000000111110
1011011010001111
1001000001101100
1011000010010111
1111001011101001
0111010000000001
0100001110001111
1001100110111001
0100100011010100
0111000001101110
1101010010000110
1111100110110111
0001101001100111
0000100101100101
0110001100011111
1000100101101111
0010000000010011
0001000010110000
1100101001000111
0111101011110011
0110010101100101
0001010011011001
0010011110110000
0010010101111101
1110001110011001
0101100100001101
1000011011100010
0010111111011001
0010111010111101
0110100001001011
0011111001111111
1000000010001001
1010111011100111
1101110010000101
1100101001100001
1110000000010101
0001111111100001
0100000110000101
1010011110001110
1100110110000000
0101100110111000
1011001001111000
0100100111001100
0110111010111010
1000001011010010
0100000011000011
1011101100110110
0101010001110001
1000100010100001
1000101101000110
0001111110110100
0000111101100001
1010001110110100
0000010101001000
1011100101010101
1100001111010001
1001100000100011
0101110010010101
1101001011111001
0010101100010010
1000001101011110
0001000011001111
0110011001001100
0101110010101110
0100010100011110
1001101010000101
1100111000001000
1110110001010111
1110101011011000
0110101001001010
1101111111110110
1101011101000110
0001000010000010
0110100100010001
1011011010010110
1011110001110110
1001000010010110
1000000110000100
1111111101101011
0000001100001011
0100010101111101
0110101010100000
1000011000010011
0010111001000001
1101011100011111
1100110010001000
0011001010011110
1001000001001001
0000101101001100
1111100011010001
0011001010011100
0011111011101001
0000010100101001
0110000001000101
1111010010011111
1000110000111000
0110110010101111
0111110100010111
1101000111001000
1101111110101101
0100100010100101
1110110111000000
1100111000100101
0011000110101010
1111110011110001
0001111111000000
1010001001001110
1011011111010011
1110011111001111
1110100011111110
0001100000011000
0011010000101100
1000110000101001
1000110111111001
0001001100001111
1110011111110100
0011001100001111
1000010001011111
0101001100101101
1111001001011111
1100110101011111
1110110000100111
0111101011100100
1110010010101011
0110010001001101
0101101101000000
1011010101101000
1001011110110010
0100000000101110
1000110011111000
1011101011100001
0100010011000100
1110110100000001
0000100101001100
0100010011010111
1011011101110101
0110001010101100
1010010101100001
0011110001100011
0010101101011111
1001011000010110
0000111100011101
1110100011111110
0001101000000001
1011100011100010
0100101010110000
1000001100001000
1011011000101101
0010000011000111
1011010101000110
1101010111111000
0101000110100110
0011011011001110
0100011001011000
0000100000101101
0011110111110000
1100110001011010
1010100011000111
0111100110110000
0000001000001010
0010111001100100
0001101110110001
0000101011110011
0001010111101010
0100111110010101
0111111111000101
1001100011000000
1100010101110100
1010110101100010
0110111010010010
0011101010011011
0010101111110100
0010011011001100
0100010111110111
0100100100000101
0011110000010100
0010010110110111
1100110100001110
1001000010100010
1110110111111101
0001001101001011
0101110001010001
0010011011000110
1001001101100010
0100111111000100
1111100100111000
0010010110100000
0000000000000100
1001001100000010
0011110110001110
1010010111001100
0010100000010101
0001011110001000
1110011001100001
0001110000100110
1001010101101010
1010001000101100
0000111011111101
1010110101100010
0110000101000011
1011001100011111
0101101010000111
1001110010100110
1100001011001011
0100001010100001
0111001000011101
0110101000001111
0011010010111100
0110101111110100
0111011011110100
1110110101001011
0000101010110101
1100111011001010
0010111011111011
1011010011011001
1010111001100101
0011101110000001
1001001110000111
1111110010011111
0011100000101100
0010000100001001
0100111010000010
1101101100111000
0101001100001110
0110111111101011
1100101101100010
1001011101001010
1101010101100010
1001000010100000
1101001110001011
0000110100001110
0001100111101000
1000000110000000
1111010100101110
1001110110011010
1011010011010100
1010000111011111
1100000110001111
0111000111000011
1011111011011010
0100001101011011
1000001100111011
1001000011111100
1111000111001111
0101110100011010
0101101111000001
1010101010111111
1000101011101100
0110011101111010
1110111000001100
0010101110101001
1011110001001101
0000010000101100
1011100100101101
1111011101100010
0111111110000000
0001011111000000
1011010110001000
1110111101000100
0011101001101011
1101000111101010
1100110110111111
1000001101010010
1010011010101000
0100110110000010
1011111100001001
0100011111011110
0001010010100011
1100000101011001
1000101010101010
0100111011110001
1001101110110011
1110111100001010
1001000111100111
0110110100011001
0010000000101101
0101111100101111
0010100011010100
1011001000000010
0010011101111001
0110111111011000
0101001110011110
0100100011110010
0001000000100101
1100100010100101
0101110000011101
1000010100001011
0001001011111110
1110001001001111
1101001101010000
1011010001000100
0001011001000011
1001111100000111
1101101111110110
1110001001011010
0001110001101001
1101010000110001
1001100011100101
1010000010000010
0111010001000000
0101111011101001
1110100100001010
0001111110011111
0000110100010010
1000011011010010
1111000111010010
1001000011101001
0101110100111010
1101010000110100
1001011111111110
1010101101010101
1101011001001100
0001100110011111
1110000010101111
1010110011110011
1001101100101101
0011001101010010
1000100000100010
0011010001011010
1100000001101101
0100010101011011
0000011011110100
0111110000111000
0000101010011010
1011101110100110
1101001010001110
1110111001100010