1101111010101111
0001110011111101
0011011000100110
0100110110011111
1111110101010000
0110111011110010
1101100101111000
0000100011111101
1100011110111000
1001001000110110
0111010100100010
0000001010011111
0001100111101011
1110100010000001
1110011010110100
0100101001111101
0110010011100100
0011000000101001
1001010110001100
0110011010101011
0111100000001011
1001011000100110
1000000111101101
1110011010100111
0100010001100011
0001111101001100
0010000111001111
1000010111011100
1001011101010001
1000101010111100
1110111101001110
1010001010110100
1011000101111101
0001001010011000
1000001010011101
1111100010110010
1101110011010100
0111011110100100
1010100011101010
0101010001101111
1101001001011111
0001000001000010
0011011101010101
1000101010111110
0000100001010110
0011100000110110
1110000000011001
0000110010011011
1011011001000010
1111110001000110
1111110001011110
0010110110101000
0111010010100101
1011010001000110
1110100111110110
1001000100011001
1111000111010011
1011000011010001
1001011101111111
1010100100010000
1001101111010101
0100110101000001
1011101110100100
0000101011110011
1101000011010101
0000110100111000
0011001010100110
1100100000110100
1111101000101111
1101001010111001
0111011100100001
1011011100100000
1101011000001010
1001000011101111
1101010110111010
1000001110111010
0010100111001010
0011101000001101
1110110011100111
1010000010011111
1100111111011110
1101011001111011
1101010010001001
1111100101010010
0000000111011100
0110000010100001
0000110011111011
1101011000001010
0101101000100001
0000111101111010
1010110000110111
0011001010111110
1111100110101110
0101111100011001
0011011001111011
0111110010011010
0100011101010011
1010110111100100
0111000001001001
1001011010101111
1110011111111110
0010010111011101
1100101010100011
1000101001100111
0001101111111101
0101010001001110
1010100101111101
1000110001101001
0110110000010011
1100010011101110
0111100011101001
0011000101100111
0101101110101011
0101010100010000
1101101100100011
0101010001011010
1001111010010101
1010010001101100
0011011011101110
1011011111011110
1010001100010010
1011101011100010
0111000111111000
1110100000111110
0110000101011011
0101001000111000
0100000011111111
0000010110001001
0100010001101111
0010100011000101
0001000101100110
1100010000001100
1101001111010110
1010110111011000
0101000101100110
0000001011011010
1000111110101011
0100000000011001
1010100000111011
1100110000110001
0011000110100100
1010110101010101
1010001111111101
0110011111010100
0111101000111011
0110111111100010
1000000010010000
0111101100100010
0110100111100001
1011011000110001